#include "MLPLModel.h"

// This is the content of the model's .keras file that has been converted to .json from using frugally-deep's convert_model.py script.
const char* MLPLModel::MLPL_JSON = 
R"({"architecture":{"module":"keras.src.models.functional","class_name":"Functional","config":{"name":"functional","trainable":true,"layers":[{"module":"keras.layers","class_name":"InputLayer","config":{"batch_shape":[null,3],"dtype":"float32","sparse":false,"name":"input_layer"},"registered_name":null,"name":"input_layer","inbound_nodes":[]},{"module":"keras.layers","class_name":"Dense","config":{"name":"dense","trainable":true,"dtype":{"module":"keras","class_name":"DTypePolicy","config":{"name":"float32"},"registered_name":null},"units":32,"activation":"linear","use_bias":true,"kernel_initializer":{"module":"keras.initializers","class_name":"GlorotUniform","config":{"seed":null},"registered_name":null},"bias_initializer":{"module":"keras.initializers","class_name":"Zeros","config":{},"registered_name":null},"kernel_regularizer":null,"bias_regularizer":null,"kernel_constraint":null,"bias_constraint":null},"registered_name":null,"build_config":{"input_shape":[null,3]},"name":"dense","inbound_nodes":[{"args":[{"class_name":"__keras_tensor__","config":{"shape":[null,3],"dtype":"float32","keras_history":["input_layer",0,0]}}],"kwargs":{}}]},{"module":"keras.layers","class_name":"ReLU","config":{"name":"re_lu","trainable":true,"dtype":{"module":"keras","class_name":"DTypePolicy","config":{"name":"float32"},"registered_name":null},"max_value":null,"negative_slope":0.0,"threshold":0.0},"registered_name":null,"name":"re_lu","inbound_nodes":[{"args":[{"class_name":"__keras_tensor__","config":{"shape":[null,32],"dtype":"float32","keras_history":["dense",0,0]}}],"kwargs":{}}]},{"module":"keras.layers","class_name":"Dropout","config":{"name":"dropout","trainable":true,"dtype":{"module":"keras","class_name":"DTypePolicy","config":{"name":"float32"},"registered_name":null},"rate":0.3,"seed":null,"noise_shape":null},"registered_name":null,"name":"dropout","inbound_nodes":[{"args":[{"class_name":"__keras_tensor__","config":{"shape":[null,32],"dtype":"float32","keras_history":["re_lu",0,0]}}],"kwargs":{"training":false}}]},{"module":"keras.layers","class_name":"Dense","config":{"name":"dense_1","trainable":true,"dtype":{"module":"keras","class_name":"DTypePolicy","config":{"name":"float32"},"registered_name":null},"units":32,"activation":"linear","use_bias":true,"kernel_initializer":{"module":"keras.initializers","class_name":"GlorotUniform","config":{"seed":null},"registered_name":null},"bias_initializer":{"module":"keras.initializers","class_name":"Zeros","config":{},"registered_name":null},"kernel_regularizer":null,"bias_regularizer":null,"kernel_constraint":null,"bias_constraint":null},"registered_name":null,"build_config":{"input_shape":[null,32]},"name":"dense_1","inbound_nodes":[{"args":[{"class_name":"__keras_tensor__","config":{"shape":[null,32],"dtype":"float32","keras_history":["dropout",0,0]}}],"kwargs":{}}]},{"module":"keras.layers","class_name":"ReLU","config":{"name":"re_lu_1","trainable":true,"dtype":{"module":"keras","class_name":"DTypePolicy","config":{"name":"float32"},"registered_name":null},"max_value":null,"negative_slope":0.0,"threshold":0.0},"registered_name":null,"name":"re_lu_1","inbound_nodes":[{"args":[{"class_name":"__keras_tensor__","config":{"shape":[null,32],"dtype":"float32","keras_history":["dense_1",0,0]}}],"kwargs":{}}]},{"module":"keras.layers","class_name":"Dropout","config":{"name":"dropout_1","trainable":true,"dtype":{"module":"keras","class_name":"DTypePolicy","config":{"name":"float32"},"registered_name":null},"rate":0.3,"seed":null,"noise_shape":null},"registered_name":null,"name":"dropout_1","inbound_nodes":[{"args":[{"class_name":"__keras_tensor__","config":{"shape":[null,32],"dtype":"float32","keras_history":["re_lu_1",0,0]}}],"kwargs":{"training":false}}]},{"module":"keras.layers","class_name":"Dense","config":{"name":"dense_2","trainable":true,"dtype":{"module":"keras","class_name":"DTypePolicy","config":{"name":"float32"},"registered_name":null},"units":1,"activation":"linear","use_bias":true,"kernel_initializer":{"module":"keras.initializers","class_name":"GlorotUniform","config":{"seed":null},"registered_name":null},"bias_initializer":{"module":"keras.initializers","class_name":"Zeros","config":{},"registered_name":null},"kernel_regularizer":null,"bias_regularizer":null,"kernel_constraint":null,"bias_constraint":null},"registered_name":null,"build_config":{"input_shape":[null,32]},"name":"dense_2","inbound_nodes":[{"args":[{"class_name":"__keras_tensor__","config":{"shape":[null,32],"dtype":"float32","keras_history":["dropout_1",0,0]}}],"kwargs":{}}]}],"input_layers":[["input_layer",0,0]],"output_layers":[["dense_2",0,0]]},"registered_name":"Functional","build_config":{"input_shape":null},"compile_config":{"optimizer":{"module":"keras.optimizers","class_name":"SGD","config":{"name":"SGD","learning_rate":0.009999999776482582,"weight_decay":null,"clipnorm":null,"global_clipnorm":null,"clipvalue":null,"use_ema":false,"ema_momentum":0.99,"ema_overwrite_frequency":null,"loss_scale_factor":null,"gradient_accumulation_steps":null,"momentum":0.0,"nesterov":false},"registered_name":null},"loss":"mse","loss_weights":null,"metrics":null,"weighted_metrics":null,"run_eagerly":false,"steps_per_execution":1,"jit_compile":false}},"image_data_format":"channels_last","input_shapes":[[3]],"output_shapes":[[1]],"tests":[{"inputs":[{"shape":[3],"values":["KUswPxCIuz95D5w/"]}],"outputs":[{"shape":[1],"values":["Pp0eQg=="]}]}],"trainable_params":{"dense":{"weights":["QnDdOZtsijuTh+E6ghg1Pj7DkL29Pr86g/gNO6t9pz6qFNO7yg+OPQT5eToyYUw7ly3HPk91+bnErMs+ftNVPgSq2jox3Fs7KuxiO/odjD4WgX46QNu3PnH8Uz1BvrI7x4LIOz3hGT5P4wM+5PMnujVWdb+3Lzs9fcuaPpcECjvKo/c62jsSO3kCjTpOzuU+PcuuPT3DZjrVFS26TcIHvK5HNr0/Un2+hkUwuiM7QzyjAh08MGHqOo2VSzutGa6+VHDJuVHO9brecq86HSyVuwynQDrVdrU7eph5vv7hPb17xKm7M3fGvqj/v75NTgk7BcCsvekyXL79Bja+LsOMOWegcT9USVo/llRnP3Lotj5K26G/dU0zPxoESj/mPyU+63jjv0xuIz6U9H4/VtVcP/lTqD30dHE/TrdTPkiBhj5txF8/MwhbP1wTNz/MX8g9WF5yP6Mtyj16/x0+PlwTwA8mIj+BP5I+1YCPPpdvgj8dq06/bNEHPo7rbj6/H3Y/"],"bias":["KA3ePsW8yT767tQ+T2jqvQfjx702EKU+uVO6PkBFwD5duAe/h/fXPBh16T6PGco+s0PNPup43j4CGdE+kedBPRagzT5XhMk+FrumPnZjoT6KSt4+McXDPlxq5DztuGa/k2qRPrmmBz11PLo86hHwPhzETb/b9s487oo9Pr/Y4j4="]},"dense_1":{"weights":["i4s9PRnz8zw2Y9K/OSApPG7eWcAsIZq/8CQhPHqz4r+L1yO/Us+QwNR3+TzeQtw8EwSSwCaBEbsW2r27O3iOOwQqiD2TWOG7PEtEPMbaqTzbxdw8fFxFPJKiDb4784y7yYJWPS5NJ8DmuZU9yjsMv5j6dzz9ZAQ81Qa8OxgGVTvdG4g9q0olPNlH+b9icbI8ADRtwMR3rb8G1JY8E3eqv+I4er+KUIvAjwPSPQ9YPjzW3ZfAWyROuxgEnrwfxYA8oadnPcCtgzytTdo8LTn0PMSEljvn3ii8ZjAlviZEkTyT8aM9GQAswO6cRD3GeAq/wRmzvCeEUzzuAsC7AJnuO3yJMD06Zx07jx7gv9+x/TyqSWfAgiyRv61MbDxbGtW//Slwv7N/kMBrhbc9QO6Gu8AUlcB0jZc7laUPvFcF6Lo384g9Y1xIPKNQADv79/Y85eetO97WqztkLw++an7aPFt6fz2FrDrAaMlSPWO3CL8Gsvs6luOXPK7CGDytHp48nAsEv/YUa74jC56+um/OvktGwj3F0Gy+HLcvvmRSH7+TxXq+LOp5vg9uj7+Z9ly+yXY7vo+YML6ap428GJpCvmy+2r+Jul6+ImOpvhfkh774v0C+Cn6RvhyOEj5mBY++c5N3v4gKBr/ToYO/AqqTvq+Mh77j1Ye+toBfvvfwTb0+g989AMaCvj21or76Csy+7UUfvQJAxL446bS+5xOuu0LNs77ntA++uXHUvs4ynr7Db+y9tjPSvoIBX7/ZBJG+G/gqv9X0jL7sxYi+iOGmvqLnzb6Indm+JpbHvnHsu75q35u+0qImvonogb6gGu6+jDyOvjnGXL4vNo2+06MZv+xWJz0m0ek8iwgFwOrdQj3NCX7Azu3Lv5PhLjwA9QnAy4OWv79MdMB3SrA99Z5SPO7khcAQBDq8fo+wuyS7dzw/Qn89bC1jPLjusDwgip08kstcPNm9tboYqUe+9tqIPAeUtz0qHETAmWe4PaS7L7/KMBc9m7k4ubpzeTx4+Jc8","SklvPfz0YDzz/wTAZDvwPLFGfsDJwq6/lZZtPAt8+791TH6/AyOMwOGc2T2W5Ty7pGiWwMGgfzzBfwa9r041PM/arT1B+Ds8epGLPPQ9DDySl346HVB2O1coCr6kzoI8X029PeTyO8DFqqU9WbAav47SJTyFS4A8N23Ru8I9BDxyzgA+jSC+PDiiN7x/HUc9vFJEPQ01Qb3sflM8uxGTu+AlCLvRkYY92DM+PkFm8Tx+5UA9JkCDPEPj+TtnrE083wAsPkN4OD11k7E873j8PLMLYTwyovo8VolWwF50tTx+9R0+XBaAPAzk9j0BoLC82LQjPXFWZj0rmqA86sAwO4DxIL/IoSm/OMXtvjdOYb81TMy9hl9JvwUJTL+YBxq/czyNv5suFr6mfAW/9vxIv/2wur2csVm/FvGkvzhUTb/aNRW/lRBBv029M78lpDu/ngVOv7UZZ78w0wy/zH9Zvw/ah763X4K+fFe6vjcAm7+u8zi/Nx8tv0CzO79Hk4C/oAXfPjU8NT6GdQk+blE2Pg1raj1DSwU+wyPiPcNhZT7ifmU+PUCKPTeAqb79k2I+ybXEPB9bUz53rY89LiYRPq9hkL789ec9dIRLPumjYT6cceQ9PEZyPub2Bz+srd09u06vvc3Xwz2nuv69Pm3APQeSDz6mlWg+ymA8Pt0vOj12q+c8WznCOaf077/FeIg8qN57wMD9e7+ENPG6OrWevwUfWr9G04nAojuDPdJAdDxIvpDAp+rtO9g0OrxZrqQ8FC+QPVEytzy/9qg79pmePJ43oTv6YFs815gJvtfAojlbClM9qiowwHQAgz2E1ge/eSRUPJC+ZTybCNe8WOLKO7jGBTwMeWW82j4LwPJFwTvWQWLAL9yuv5d6Szs7aOW/t899v8dEjsBod589Dj5dPN9WlsBE6qc8KKoJvHBNIrhSaY09wPGuO0gRzzxzeKw8E57RucZXrjw+7CK+yoZaPGW4gT0LwyrAlG3fPeMvGr97QtQ8/suUPNvRtDom95M7","lTuCPL+OIT02ebc5kKsPPQynGz2gGEe98MOQPMZYkrtwAoC49lz4PMoCNj6VeTk96N4UPQR2HDgBLo07wn7pPDi0Mz7FKxg9WNkdPThLPD10HPY82ft7OxnVaMDsOMY7x9f5PfXorjuulwA+GdXVvF4jFT03Zjw9w+xqPCD2CDymXuk7zit4PBPf6b/ga2U888ZewKs5mr9WPNK7Zrrjv6mXR78NIYbA0v2bPVOKybu5W2fAUXTBuy2/BLzSOXg8w1qcPSaKLTutfaE8VBOfPFD5JjySmak8Fp4IvpwSNTucRZ09uTslwL6rOT1rSt2+P5NRPL6NsjxlhWU88evYu/W6FD2Q4kU9BE2wvFTh0jxpgyo951TMvK0A5DwsDWe8feNjO8E6wTzWGmY+PSQPPeS6Xj2ibd08zhoXPWOetTySkgc+WW2NPOWtBDy+TOQ86yHYPHogHDmR/IPAnM8nPXQCBz74v8Q8v6H4Pc+rzryKuEY8kTg9PO+sozxh3g89pxNNveELsT1Hs8k9WugBPtSalD0qxcg9lyeVPUKRnz0CIbQ91ZsHPTAOT7yqkuo9nsNBPGDiFT5ZDoY+JS1JPYGV+Lw2jS49vZeePXBciD33KoU9X3bhPR2ytL4K8A09ndDEPZNeQj1cEGs9tyuSPQOwND4HkYI96wc+PVqvhD4L1u48YoYNO9HIBMCqjs87ri52wHG1nb+WYKE8KAbOv0JXWL9HGIvAip1/PYAbUjvLMorApiBdOu8Ii7wWOkA8ryWSPR8prjyVWsE8HTh1PJlR0zwBhTw75DEkvjUPOjyb6XU9gNEqwM/chT1DNSC/U5gpPBKxqLr72go7RPzmOzeLJz2n/eM7KXUDwF0AWDzlL1rAkpydv8Ix07pZyc6/oupxv5smh8C+kJw9iAzkO5gqgMDPozY8PtzrvAbcWzzyYZI99u2gu5YxXDp0MH08KPaPu19BTTwJzgq+SGjwPGJ1hz3H4R7AhB2EPSf6Ib/QmGI4AekJPJwXIjwEGQm7","y058PTduCT1aMvW/DxLLPB97UcBzAc2/lpZzPMhjGcDb7XC/JwCGwFQmAj7T8AE94Yt8wDjnqjus+wK7f59RPK3Tyz10nH+8ZQB7PKSrpDycZAa7uP3Yu0OuG7729Zg8KuRaPVyjIMDe5UQ9UGxQv6zHrbuTg4k7diDQO3CajbtiSbQ9qq0vPfMNr7zde609hHDCPDKChL32hRo9wjl/vEyrdriF0zw9Nt9ZPmwrrDzGD6w9MokXPS19CL0z0cW7cEM7Pvw5IDw4pK49eDMEPSzzULpzlEQ9a7FlwDU4Vj2mYzw+QbCZPCaXHT6N0kC9XAIkPP6VVz2cVKo9XEb3vG1VyDzfD7U8LQXZv9sdqDowcoHA6CaMv0Hu8Duy296/E1Jtv5Kah8ABOVA9lwGku5qwj8CKR7S6Q12RvOA28junX509x29EOzwBsDpONvg7/DSTujOGLDxDSdO9KWNiPHYlnj3Cah/AAT+DPahDHL/zEbc8eQnCO4e2Pjx7Rb67ZT2xPZr1ezxX/5u8qdu+u5LjXzzFcTO9XceKPPS/6jtIKZ27C6Y2PWRiRT69J0Q9SwhWPY1kALxYTCQ7v8p0PclYIz71LLU8fAJCPevRKrtBjAU9SfwGPSUAWcD/2Ck9FZ4bPrb74jvDUgc+wuDmvL8UOD3EzA09hPFFPPl6g7uXGiE/0xhPPhD2mj2YqGg+QxN1POHHsT3HUKs9l2taPqMIZT6mQpK7sUtPv5eK8z0cIY+8tYzcPSbZSL7/ZS4+s/4yv2hBMD77ho8+jgbnPUPR1D0JNM09IWEJP+IdOj6SYem+0FF7PSSC1r4mqB4+NRxmPinoYj6izDE+AZeUvQaPBMAldva/5Cquv2joDMCxTQC/CKjev2cI+r8GJrO/9BkBwBle6b65OlG/W+r7v9sS8r7fagXAWYQNwHApAMAqkR2/C+z7v03oBsAeaQTA9oAEwFvgBsBMK1q/hcgDwMWG1r7nPnu/gbPhvoMF+b8l5AHAhaP/vw5WA8CEAQbA","77fzOh0bp7u9EwfAwF1tPETcWsA0jv2/+W75O5V1DMCCv56/p5xvwP3FuT2oNEy8z/J+wAIjMLzNKwK9pkudOyZ92T16usk803/kO4Yn5bu6M1O6dQoCPItagL7IMPM8P8y+PUlqPMDAn5s9ext2v42+lTy22g49PwmbPHCpH7oR1we+SbvtPJSTpz3PakY9aSXEPMeOAD6xU5g999naPSSpyT3Zu2Y9Dm0EvjEMlz1/LBY9weUQPnIijD5yOP89gy3vvdAkxT2ONhw9mKbXPdP+Oz6d8No9BTiTPtADKz7JdVU85WCuPf/A1jujkpg9ndwePa0Gkj0gZYw9c96IPv1dxz30OIU9UKKoPXCP+T2JjI26OxX2PZjlGD4e2wM+lhPoPTJhBD2kBDG+HQoDPn4Mmj36HaI96QSAPlAYTT1DPC2+PkcPPgDBjz3bnQw+IFuTPeMkqT1kIbI+L5+BPcuo1bwi18c9ZQUkvXG9xT29Hrg89rM+PcamCj5rtoY+uBKUPBgvojdi+vK/NX1JOnt9YcC5zXa/dUQMO1m+n79r2FC/+WSMwMH5qz32ul68L7KawDJOUDxSo/G6RY2kPBcuaT2kad855LRoPDEFMTzIruu7dPKcPJT+DL4yNKY8EE6EPUyoH8C/ygo9MXD4vkw2ezyaeo+73hSvuvWzjDuAN1K/CHgTvx5qDr66LVO/bUsivv6S5b2p/x2/53PRvdZQdj1jRiC+kFxVvxl4KL+a1QS+ih48v79l5b9N8R6/Uy5Vv9O5Jr+5Kjq/3uolv9h5Nb+nmj6/6hEAwGyHQL+66jC/Gx9Jvnl3875Mpwq9GDoiv+1xHL9T5yS/FNhIv8iRAj+n1H4+I3QRPpYrnT6DW8c9EPYfPu+P6D2d724+xeKGPl2DNDq8WVu/Co9QPsIxvzuYfBY+3lJHvv+QlD5KVkK/SBlJPvj0jj7sqxU+3wJEPqfDTT6PoTM/sH+YPtvG4b7s+bE91DrdvmtKaT7HiZM+k6OVPs85bj5+1w2+","AuiEPEkYBT1YCbk8jJfsPdfZBz13dgc8WaXLPVQ3ZT2+Zwo9k1xaPcxjNT4bKz885hpyPUjKpT1hM+47SpV6PX1gFD7JHmA84vcfPRKiDz1TlX89DQ3ePeVtS8DxbQI+209SPihs2jtPcDk+wP0bvX9zoz2MUYo8IEBZPcjvAz2c17Y8AD28PFu7zb96fLI8vGB0wHpajb9GCZK7MQS+vz1Bg7/61oPATEWFPQRuxzvjnpHAT8+4POxuAbyrD5g7hmWaPR8vETxhnsA7vd65PGmu5ruRRrY8ttoMvviEZrsBN4g9cjU2wASAKj1D7O2+1pRIPOPLbDwDggk97F3RvA=="],"bias":["rVDSP7Lktz+oLYs/d0wGQMtHLj/rops/I4zSP5C2Zz+cd4Y/rpAzP9f7vL+5PtE/WB0kP2tS7j9hxfw/QojNP6JboL9lAsk/wsHcP25v1T8Fo+Q/Trb4PwsrxT+Esu4/IzW0v3w4cT82eaC/ZzCIP8zvzz8KCsI/Xd7TP+pYBUA="]},"dense_2":{"weights":["KDI8P+9tfD9+BybA/84uP12GgMAm0STA1v9mP5mhGsAIHRbAjTiPwO/BPL9UW2A/y3eOwHMITj+Ljl8/bvRmP10gaL/YRWk/pOBPP0+ZXj8maVM/C64+P5e1mcC99EY/L5JUv21ePMBbzmS/vR0pwJEHYT8T7Wg/T4VcP9hrPz8="],"bias":["Jt1GQQ=="]}},"hash":"1693b734f06d1632c485f2baf134cffcc17b284c3eb91d111ccd740983a377e3"})";
