/*
 * Copyright (c) 2025 His Majesty the King in Right of Canada as represented by the Minister of
 * Industry through the Communications Research Centre Canada.
 * 
 * Licensed under the MIT License
 * See LICENSE file in the project root for full license text.
 */

#include "PathObscuraModel.h"

// This is the content of the model's .keras file that has been converted to .json from using frugally-deep's convert_model.py script.
// Using raw string: R"()"
const char* PathObscuraModel::PATH_OBSCURA_V1_0_JSON = 
R"({"architecture":{"module":"keras.src.models.functional","class_name":"Functional","config":{"name":"functional","trainable":true,"layers":[{"module":"keras.layers","class_name":"InputLayer","config":{"batch_shape":[null,7],"dtype":"float32","sparse":false,"name":"input_layer"},"registered_name":null,"name":"input_layer","inbound_nodes":[]},{"module":"keras.layers","class_name":"Dense","config":{"name":"dense","trainable":true,"dtype":{"module":"keras","class_name":"DTypePolicy","config":{"name":"float32"},"registered_name":null},"units":64,"activation":"relu","use_bias":true,"kernel_initializer":{"module":"keras.initializers","class_name":"GlorotUniform","config":{"seed":null},"registered_name":null},"bias_initializer":{"module":"keras.initializers","class_name":"Zeros","config":{},"registered_name":null},"kernel_regularizer":null,"bias_regularizer":null,"kernel_constraint":null,"bias_constraint":null},"registered_name":null,"build_config":{"input_shape":[null,7]},"name":"dense","inbound_nodes":[{"args":[{"class_name":"__keras_tensor__","config":{"shape":[null,7],"dtype":"float32","keras_history":["input_layer",0,0]}}],"kwargs":{}}]},{"module":"keras.layers","class_name":"Dropout","config":{"name":"dropout","trainable":true,"dtype":{"module":"keras","class_name":"DTypePolicy","config":{"name":"float32"},"registered_name":null},"rate":0.25,"seed":null,"noise_shape":null},"registered_name":null,"name":"dropout","inbound_nodes":[{"args":[{"class_name":"__keras_tensor__","config":{"shape":[null,64],"dtype":"float32","keras_history":["dense",0,0]}}],"kwargs":{"training":false}}]},{"module":"keras.layers","class_name":"Dense","config":{"name":"dense_1","trainable":true,"dtype":{"module":"keras","class_name":"DTypePolicy","config":{"name":"float32"},"registered_name":null},"units":64,"activation":"relu","use_bias":true,"kernel_initializer":{"module":"keras.initializers","class_name":"GlorotUniform","config":{"seed":null},"registered_name":null},"bias_initializer":{"module":"keras.initializers","class_name":"Zeros","config":{},"registered_name":null},"kernel_regularizer":null,"bias_regularizer":null,"kernel_constraint":null,"bias_constraint":null},"registered_name":null,"build_config":{"input_shape":[null,64]},"name":"dense_1","inbound_nodes":[{"args":[{"class_name":"__keras_tensor__","config":{"shape":[null,64],"dtype":"float32","keras_history":["dropout",0,0]}}],"kwargs":{}}]},{"module":"keras.layers","class_name":"Dropout","config":{"name":"dropout_1","trainable":true,"dtype":{"module":"keras","class_name":"DTypePolicy","config":{"name":"float32"},"registered_name":null},"rate":0.25,"seed":null,"noise_shape":null},"registered_name":null,"name":"dropout_1","inbound_nodes":[{"args":[{"class_name":"__keras_tensor__","config":{"shape":[null,64],"dtype":"float32","keras_history":["dense_1",0,0]}}],"kwargs":{"training":false}}]},{"module":"keras.layers","class_name":"Dense","config":{"name":"dense_2","trainable":true,"dtype":{"module":"keras","class_name":"DTypePolicy","config":{"name":"float32"},"registered_name":null},"units":2,"activation":"linear","use_bias":true,"kernel_initializer":{"module":"keras.initializers","class_name":"GlorotUniform","config":{"seed":null},"registered_name":null},"bias_initializer":{"module":"keras.initializers","class_name":"Zeros","config":{},"registered_name":null},"kernel_regularizer":null,"bias_regularizer":null,"kernel_constraint":null,"bias_constraint":null},"registered_name":null,"build_config":{"input_shape":[null,64]},"name":"dense_2","inbound_nodes":[{"args":[{"class_name":"__keras_tensor__","config":{"shape":[null,64],"dtype":"float32","keras_history":["dropout_1",0,0]}}],"kwargs":{}}]}],"input_layers":[["input_layer",0,0]],"output_layers":[["dense_2",0,0]]},"registered_name":"Functional","build_config":{"input_shape":null},"compile_config":{"optimizer":{"module":"keras.optimizers","class_name":"SGD","config":{"name":"SGD","learning_rate":0.009999999776482582,"weight_decay":null,"clipnorm":null,"global_clipnorm":null,"clipvalue":null,"use_ema":false,"ema_momentum":0.99,"ema_overwrite_frequency":null,"loss_scale_factor":null,"gradient_accumulation_steps":null,"momentum":0.0,"nesterov":false},"registered_name":null},"loss":"mse","loss_weights":null,"metrics":null,"weighted_metrics":null,"run_eagerly":false,"steps_per_execution":1,"jit_compile":false}},"image_data_format":"channels_last","input_shapes":[[7]],"output_shapes":[[2]],"tests":[{"inputs":[{"shape":[7],"values":["H+i9Ptx1hL8YbL+/8/wHvS213L9MkLE/L9FPvg=="]}],"outputs":[{"shape":[2],"values":["qg3GQrGcqUA="]}]}],"trainable_params":{"dense":{"weights":["Tv7qPblltD5+hxO9Ia9du9Y/FjrCw7W9+dLxPL1ngr7SSlW9mVE8Pmig8DvxuyU80q6hPgDvGb5Hc5k7Hn3fO6wS9z3Tcoo+sUEdvCsKaD3fhLG8y269PtG4vTuRyFQ+pcglPkRzHz2CS4W+TuKaPnItq79sQQq8t96CPjhBlb7WhfQ7Pm8SPhz2PTznJro78uXJPAuJyTz2AJo8wmCRuuGl9T4WMkY+pbuZOWSWFjzmFbM9pxGWO3HgaL4EeOI812OnPu3rkDwsWa6+dF6AOsibyDtLX/o8nQWsPSP98T06cAk+Kd3APmw1Nr3nqrc8ECS+PsH3Eb0Ne20+BJd2Pi5/k72czc48jPqvvvVwnD3cmgg+ndhMvXVP3r2QWWm7IDyqvuTmDj36zJE+L0yVPgG8mjzhtFm+7w+oOw1xhD5tSzC+7zADuhp4FDx79pS+9atXvMCzBDxRyUa90xNTvCOcBL1tiEe+aSKZvnxv57pvGfe8yw22vgTUp7pmg1m9rSpGPoUAwz1XJMw93gmUPSxg8D2+LdQ9Y1DwPZk5fD0fzlU7q6xFPTsklz06C3g+U1aaPdYCdj5DQtG8VdnrPfx6nzqMUoe9u5C4uznKKL8TTww++2LSPaMPkD2JrlS+mkUzvst4EjwU2Re90UgnvWnFgrw0SaO8qNyoPUfhdr5tXCa9l8Oyu9zzWb3S34I+m7FEvNpVnT1N7TS+IsMrPFePKj79INo92N0fvjmqe7/u5ay6HI+4PDDhy7tAshm+//9rvcohEDyQRhq8NJOIvVmTb721ggg8nV+7vtp4tT0J6mu9s856vm7xm77HV1O7AqoAvub8mL3N8Fk8Zmt3vu1OQr6wFAO/cdQCPfcAIj4r3oM+3VCXPu7qsD5+iEs++OE1unc9Gb6V+q4+csQEvoATa7+tWhO+D8oTPutRJr4ITHA8lFDFvyfphjzNAT8+ziXsvVZDwT5vQou/PaJXvSeswryL3Y86mxxIvAnXoL66r8w78UMbvm4A7T0mWoW8","XbHoPav0abyz1DC+v5abPs5HkD6rxB++m4uDvR9K7LucclS+o4VZvooLtzy4YpW9qyQFvFza/71PxMO652oIve1JcT7BP7c7Vn/nu2+3oT488Ac9XuRqu/zvgD3U+6s82YjKPSDZNr3BEe69a/quO/F04Lu+J8y9NiFEvZQgD74mYeg9RrHPPSz+gz7IOYs+nICLPGPXfDysjic+czK5PutsmTwQWjY9OflrPvNVIr388Es9+fgEvaRnn75YSBE+o4xvPAWKmz0FEZ68wc4uvzoyijwkInc8B5qxPSznfj6Jd0A+Q78YOwVUqbyrH2M9T4gqPKslgDuHqYy+R82APrGyKT2B33G8ya4VvVxbE7wx/pQ9tikyvvVih77uryK8wXBevUqSzT16pwE+woTHvE3+zTqhNfI9/o54O9lLoz1FzlQ9+pCEuzooBDz1pUk9M+NIvmgrkbtP/gm/h3Z7PNP4aD2q0XW+xURgvmb7wrsPmgW93j7mvEWyhDxuo4C9lfXfPRvoID5PuqY9JizJPEpEDD7PaRc+H7W/PXC8DL1GbEY8DVKwPG9U3burmJY9mOptPu2tuD0aZ4a9eTtePq4Y1jtOLP89u+ZovNar2T1+uw8+hMIBPk84Rz5X9D49pvY3PXwGMrs0D2K+n/dUv1VPL7wnTRi+71zwPa49HD3Lmy09ZayoPDrggr0bsJi8BVuauxY1F72YsoE8tp5kvPef6r31voU+4iqIPfLCQr77ZIg8VKHJPiasTDtvMC0+SDdSPbOmmjzPqg08/yqzPJjn2zxHo+I7fwssPNnyorxLNX49CpHQu78G6r3pbU88k723vFPIWr0c08E+hKfjucTerDxuYAg++s7Uu8mGg7yRK6u7Dw0yvNfF9ryltpi80dEuPbtcFD4hMi2925UHPifYZT2tpSY+KNAjvup2bjw3JZs7X/2wvHbcy7z1oJg8VnnrPMhlJr0546s8cF8tPRh74DxQrzo8WcjEPFT+L7y+eNY8OLNOPYRElT6QAI47","6GVNPECAALtr0Gu84f9JPsvY7z01U8S+so6DvrO7mjvH6IO92QnYvOFhTb3+Wr4+VOyuuWYi5LsdrJ2/XN5MvVY6vDzzrcQ5eCKAv0fAhL0uBje/VOYIPOHbSL3gil297T/6O4K2tb79HO+9ZbXyO4cHYr1Wu548iLuSvDYy772jI9k9vWNLPtXLDT7LUyM+jVC6PmFUmT7EzKg+1EwpPr7q8jv0sgk9FdqEPozaFL22pKI+sNoTvZM1+jwWjAk+zWJCOo4cqT24ZMg7RlCAvnnr7j0H2L4+lmKkPiUI+DxzYck87sUWO2Bw+r5OX2a/ZK7JO4gUFr+LsA+9i28kPQ=="],"bias":["AYnGPWKQwD7Rwuu9hIYQP3WyBj/GfpE649trvhkjHj7uEbG9ExIRvqU95j5pXjq+KwqpPponlT0h0w6//q/hPt26fj2kT4M+iE/RvljgqL2U26K+bhfGPr1L/b5+6WY+zs8pPksIvL7n5tE9ySihPn8Lcr8lUhu+nCgIvnkyAL7vk+I+T+ApPrPf9z6rXQI/4aPXPslG1z76pxQ/ZcYGP+wkzD5ca+s9XQ8IP65ewz4Z9W88Ay7ePskfxT18Gs8+BhyaPgC+Gr8t01k+Ee+Wv/IztD51duY+hG0UvhNTgD1lSt89fcTGPhSdy73hWJ6/6SbPPtKIRr46QS++qPEmPg=="]},"dense_1":{"weights":["SpWSPf3bW73dSzU9hS2EveoTVD6/Gr++axnGPo4I2r2uRto8bq6XO/rI1zwWZUU9+RurPWMvA74BNe48lrMlPf9dSj3y5y09u94GvbbdSD2yai493rZaPUZQ4z1e82m+KbJVPckdKD5kuxg9rT6HO/xPnz3jt409QpZXv2xiuL1ZvRg9T/L9PKq8+T641Ze+iRG9PUGKkr1xrKQ9DIo2PAqlRz1KwsM8DJfMPkQdnT0KTV09RxBpvYV6sD5IIlQ9rkxYO4X3lD3SE4A8dSusPhDnIb3Gqdi9h7iLv9ttgz1CwbI+2RdbPuyvOj0lhtM93QzCvCifuz2Vs7481Kkevp6b8Txmn9u8qdrwubuZobz2fvi/jw6evG11Cz61G4y/Fep0ukaSNLyAdPG7+loBO8htXrtkLxC/QoTcO9cE8rrboyg7fDO0POzwP8DWV7a67JoQu191kjxWnhHAHchLv0cID7y3Zhe+FK3/O600HTzg8MY8WJKePC6B3r0cBB68cBQ5vA6KjbmNJM09sKgKv8vgBT2eRJM6HBuCu+wrgzxN9Vc8bKoivEkiOz6YbI46cImYO+WEtTuO4IA+8eCPvNGj+DvVLLS9QvLxulGpNz5n1TK8XLNGvJ1jmL++kFA6AZFkPuivP7+eZrI7uKmXvJ2qHL+DpP07tE4lu5Qr8rtX+TW+NxIxvr6xrL3pH0G+vbTpPmJneb4kobU92X9wPQMn9b1BEg6+SKgOvnNGxr27w6i9/8V7vU5zrL0nI7K902DOvemBk76pZ7o9CNG6vb+arL0sJKC98LlCPKVBXr6Jn7696v04P1fK3L2ac9W9IdaTvZbuqr2HXYC+pMr6vQo9Ar5OCe+90b1xPkMxY76qxJS+uftEve9z471jYNe9u0XAvVVPtL2Z+ic+A96vvbCi+L2W2fW9zdnPPQqW8L12L9u9ws2GPTq5yL3SRwE+6QruvXsiar6R1Zw/4r+wvaHQOj4A7jU+AAW4vdn2g72ZNBc8E4+hvc3X273WhrW9","7RWyvhPpFTzgOcS5UUxFvPq37jxu9xq+JtDavOxk7rsZbCo7bXzyu4YtiDx0q886+TM3OnAiX72Peo06gA6Uu0Z3pDvLtCg9aruZvBg35TvpbMO6/C1Eu7ai1DzgjzE7Tl6ZOkBq4Lx7GIe5EPymujAA07/Haz07ktCSvSsge78Jnkq8KPcMPG71uzyib8C9Ws8svw2Gnr8a3di/JweQu+kKHjzXBrA76bU4PUwDWbu9kI67NWQXwC1zE73hFcW695uQu7NG1L1eBeY728f7PMt7R8Cw04C84wBPPN1vEjt+mEg9FPNmPXAbfruhJpTAyZ/zvJRzvTsN9xe7qpW0wJoLnb5UWP+8fE1Yu68EN7vKwRs9EnsDvkYzf7vxD9s72MGiu6BzN7uwHCS8iSoovGJzC7vvwy28GJXOOgRxmTtjKGC8LAEwvrxQILzqV3i88LibOntNjbqwfOY8LkltvK+cQbmDKPg78BI3vJmBwbldOAfAt/FROxzawLwziF+/Pw0Du/llRDz5QsU8V+lfvb8Sur7mi3+/I6Ltv3uUTrxAknu7dB9AvMNMzT0L03o7TAPWOOnIAMBGaMO9oz0YvMhBVLyr8RC9xkN+vJf0yj0DWhrAYLRqvNfPTjzRVtW6VRy7PUPdFD0AHeA7kHBrwJZbRzpscUg7PQuwu3EZmMBf4/69g55evhW4kr17HXS+2b90PuWYZ77hTbo+doBYvc4W9r0H6R2+9NEXvmmgpL2Aopu9+QEIvkbSpb35ibG9tOPCvWNnC779maq8xPPGvUNv070vM2K9AFMJPvQ7f77vyOO9+eupvZDqtb2zYZi9WQE9vWNAkr1HCze+iafQveX1Ar4CgtW9zwLvPe25zr3Vvzy+Jcm+vQPofr1E5ta90MWevUUXtr3aXds+vAy7vTQet73t6mG9AuyjPmXssL27NhO+Ct1Yvlrsg70cW7M+R9lvvfbpmL4It1+/WsW4vduoxj4WGw6/HCvBvS/HTr1mhqm9tW9QvcKm9L3WRU69","PLrvvhsRbb7tRBy+WmSYvm8wTb6gLsy+NBYjvpqnFj3PEk++U8FOviRwGL64tTq+EuQQvjanEb4OpAq+ePctvi8BHb6TG7K8nlJrPiq5K77N+Sm+0MAUvu/CsT2xCQi+cHA4vvS1Tb+p0xm+mtMHvqnIV779wfa9imZqvkKqjL4Z12q+KHEyvn2IxjwFMN+9fcwKvw/xIL6EBCi+f2DevTR3H76P/R6+cS5xvQ69FL76yzK+YV0PvmmMPb2SYxm+9Okpvlajzb0eJRW+MC/JvaMgSL435L2+GZ3Avsa0Hr7QdOK9hjQ1v5doRL7tqhW+7+AJvrNpKL4FSmO+6m3mvelDrb0O156+I1dNvTpcp76wIk89N+Xnva80Dz6YEzO++KPmveLs8L2gwUG+LOMxvZuUB71uif69CtdtvebKpr0oleW8Hq3hvUfuPb41n8a9zg+dvfq7Ub0+0cq8U6h/vr7U3r1qOyK/ZpzWvdXZeb1h9xm9c+4GvZ4kFL7a1Wa8830Rvi7LBL77ZuY+q/iRPLWhlT0yWZu8LssNPcU+y73PVje9rKvUvdRMTT9FqIW9/iC5vZGNv7xttKc+RrW3vRzPBb6RjJY8iRI/vbskLz/q4tU8c17mvlcG1r4f2Ue9GvRCP07YX7/Jkbm9ptZUvaQV5r3y19m80mL2vW6FkLxTlyK+CYBnvvssnb3pgIm+Wc0IPdhThr4NXv8+DOICPsXJBb6wsBG+5b8ovlmU1L2iIqK9dF88vR11p72zpJ+9gku5vcpGbD3E5Hw9NQ3yvdDY8r3O/a29wJiaPeobXb7enAm+bYU2Pr+bB74er6e9jlm5vTn2jb3ERGq+Tw8NvupjGb7W4AK+DWltPqx3G76K+Gi+pqpSvb6llL28of699J6xvUNtyb3wgLQ+1o/EvZ3q/b2n7cW9K9eCPoIC6L0ysgy+GQd1vlbexL1u064+2g7ZvdrzmL786Nc9IrCtvRkaoj7ioy07X4a7vXt8qb3cwQM9PNqYvQkRIr4Xmre9","6V3iPQeimj2gogg9VaCIPfZP+z56dHO+g3vjPlb/kr6rvoI9psKJPfYTuT2gZzI8e2kqPUYVn76yjV89nU4oPXc0QT1f28A9Y6rePeHSJTyB2109qBNUPWQ5gj4iU3s+jtQMPSWx5D70qFY97WswPW9CjL8hmoY9o6qvvpor1T1jsks9+2EMPTKkDD+vPJ6+fgTPPb4m6T0fAjC/ifZXPZs5PT281Y88vfqnPZT1Bz3ckKg9iBtePdeYGj2sLTc9EKqyPcUaDb1AS1M9ATPOPbNkwr4Jy609Rswmvyv3oz3szzU+Xk0EPyGmdz19DBi/kFKMvkAgpj0jQ0o9O+0Vv7uHC74tphW9eGlQvIOFTr01on09lRmhvd3pnj3yMoS6gjCtvG50KDsT/yS9/LyUu18nr7tvzRu8+PUivC/M67s6us66DXthvtC9l7vbpuI7ElvYOqmpL7up8EY81w+LPNarobz/2CU9+zq3u+AuYLrmSErActVnPDU9Oru21n2+SkQVvTivjbzwVbE9AdRdvUOiGL3N6Ie+da78v91hkrvUK7o5yk1nu6n1Zz6hWKW8OyycvCBeIL+EAF2+KLJwvLZL5rxln6y9bhZ1OooVbz6bsqK/eHZivbpDyjyuFrW8wCOAPk5CkT2YNIi8dBZPwEmyIbs4+OE771xBvPgHjsCQnR6+65a4vb1r27um9N29pR3QPiYgF7wBrSE+5Nu3PW9p7rwwWlS9dJQuvdCYwLvA/oe8OLRIu/xRXjuepVy8bhExvJtSL76ktwS9KEvgvBlpDb3WJYE8A6HxPrXwjz0j3CC9w0w3Phh8NzyqPXk8CVJgwJFrlbzaIzw9WttBvhe0dbzL6k+8eSJ6vosOZL6TSW0+Twtlvrqq0L/c0WK7uDEKvNlBAL3P3KY+GSL8OxUkq7xm+GG+e3cMPphwtrwP6LG8K+gwPdKJM7yAMHU+sesuv40JCL7Y9t6+in2Ru+49pj4lpQW/qsf6PNTLKMB1UP88PZ2DPCTXkbxLUWPA","TST6PFd9XLzIz6Q85vTsvNItOsDqLfu8CGAkPnBZs7+HbUy8dK/duywvjLvOclc7dUuePIIdMr85M/Y7hseBPMj7iTzLAX++LihywPi/rznFP8W7HV7aPCkOMMCmeW6/SC8IvMIGA743Rle7+WOvOyKPHjxhVxM8wa0RvnDsQbxCnqO7U3SQu8RUnj1CAR+/zHQiPVIUAryymbG7yE8HvfsYLDyQqeu6NwWEPqz8PDzkAge8pwwxvPFtlT4X/7I7iCkSvGweUb2XyZw8U3UvPoXWOLzaxfW84GyXv51HPTx3vik+w55Sv17EmDwPZEu9Gfs3vyvqLDxBJIg7Fe0svKl+jjvrvAq+fnFavO06G76YGbA+V6bAvc6zCb5zW6c86bFOvamYhL1tdp695+4aPBezlDy4xm+927UmvBj4xby/uwQ8fHkKvllWnr3JJOa8sDEEvTKpErx3SRY8DQ+/PVCLK71LXcs+cDg8ve4OI7t5DcA+DWluOceinrwADrk84NQ+vWKerryd6zg/3XFAvYERer3Hi3s9wRaZPlZGS713gpi7TI0bvX5dKD8sZ1S7Isv7vJWMET5VMLK+eGnBvJKDPr3vaLK8LvEbvBa8FD+NIDg++7w+vlsThz5VTac6agskP/xtqD6T21W8dcRrPkIv/bygEoc87XfivDz78j6DULM/D8Hdv3WP9L8MLtO/UGH5v/P4iz478z0917aHvlYbAcAuif+/EJvzv+1kAcADd/2/YGRXvik0/b9FrPe/Ms0AwEJj5T1GGqu/Fk74v84797/ehvW/+M2vv9tTxb4dNPi/bQ/Cv/cI/r8rYfq/W9Azv4DK/b+g5oC/UJnrPHxQA8AiL/a/1VA6vwy5Lr8SD24/KpUAP9UHl75y1/K/Kz/1v+mJ979GJC7AzcD8v4OY9b9cZik/tmThvAXn/L+BQPq/UDV9vkwm+r8o4BTACouzu9EU5b+A6xm/9OEBwO7LEsCTr9C/KEL3vxF0g77dIdi9X/P1v4DuBcDxRZa9","9pLZvc6+cr3ynsm74qyvvQnL9z1pnp+98JAQPpaCebzsspy8xtbEvLfkBr29oxS7Y/jNOpPvm7yG46I5/HxAPMIuMTwbiHS+89MpvJw+1btoVAG7JfudPGKskjxBQvo8/deyvMFhhz2YuRe8xSiCvCdudcBifUc8VWNSvGpBBr7PlwK9kDeIvAIDpD2kl7q9IknKvAGG873HOwjA4DVwvMOR+juYZn+8Xd6sPqLanLx2hza8zTaNvn36j76KR1w8zXhhvL1IqbtIyY07FAeDPrTvkb+496m9EgSLvAcuCzxW9qM+b4XiPUzDi7oa5TnAPme3OzUTkTyuyS+6mj6MwPbFsrwYU1c9KY35PIYvXz0z7p8+B6zAvWOSuj7erFC+G4wnPVgsIT0nhYQ9Z+g0PQsykz3uCbW9qFWjPdtgMj0lKxA9IrbtvasGED3DbVA9ALiRPYOONj3Mfkw9iYVUv4c6oz1b1pe9D1OQPNkU8z2Px1s+xGVbPAAdbr/ql327UIiAPdKcbj2RQgI/AjAfvyE1cD2/5CU7n4wYPuxXHD09RAg93dodPU0yXDzf6Lk9pv4yPZ09mzyLMs8+LwmEPSer3T0hp4C+ZcM5PTrXoz34EHu5buYHPdo6E8Bxcfs9KEk5PtQ/rD5qqZQ9bjhCPraGcrtGtdE9UBukPUmLCb4QJSs9/8mOvA/BpDxaEiG9jStAv2anZ72TiEk+RHGCv2XWJTyZ/jq819EhvFbYizxdEcw8gmWSv7r3ujxLZB08kMc1u46CdL5dzru/YCEvvPvM/TvXPBi8SC2Sv13jeL+ZE+y693iavlHw6TwNeQ89Fiu1PEoL1jzc0xW+iMIRvFKjjrt/HSi7CqIWPjX7i79+22M9BehPvBydGTzvFC88yyaKPFCN2rr5+pQ+O7lUPH7+p7t3EN28XDWcPkw7/DvzJ8G8wyVYvvgQ5Dwa/Ig+vfFDu3UYib0x86q+6ii5O2jnnD7M5Ta/usE5u01jIzynzom/9kDBPKVDuDsnRB29","YwExv+k8CL83tyK/ze0Fv3Nl8b7dT22/EeMyPb64Cb4mhBq/3lYnv8sJGb9RkjW/+uMyv2oIp768SyO/K5MSv6IMHb9e7cU9gPIOvwNfNL+ENCW/1Dcrv1C9077PAmq/pGIlvw2BjL8fUy+/reonv8TcDL/ypCy/75qOv5mrPb+tEDu/dKwRvyqn0b4SADi/5Z3zvqAnCb9NOhi/YWgkv1/YJL/tzRm/7omBv+eDKb9rcCi/2UjyvkdOiL60HhO/Wbc3vy4iB75DDiC/pxJ0v3H9yr42nUG/+XDvPcA5L7/iTYq/gGwNvz8NHb8gmmm+dYEavs8FJb+MuTq/u/6sPUkLmb3AxpY94P/8PcPl0z1Azcc+d6MEP8Ig4z6VQ1q+xdITPnk/Xz7YzOk9RGb1PURNrz2iPjs+5WSHPRds1T2NfBg+/fFRvpWBLj5EAIo9/ZrQPc3A0D1go/C9gplrvzDgnT1YmRO/Xq6ePYpTuT2F7hQ/orZhPc//vL0N5dA+6aoZPvA6Kz6fNWk/kmyBvtLe+b2pIO89Ij88P7QUBz5zsZA9j3G+PT45lD4ZZdU9NngZPiYZGT+ElzI/aLn1PYruMj4y8YM9UztDPslttj7HQDI/t2GjPde9mr9H9to9sOF8Po4G7j7p5Bk+nU0iP9pjD71rgf498fRBPgXejT9Op+C+tcCPvtX5Y76Y23S++uYkPmmNDL/gJY89yOiaPY6jdr4n5Zy+Mphkvo04gL5FO3y+pWIEvaOfjb6ezHC+xA1NvorCyL14UQE90+B4vqJTZ76v5Xu+X2ICPgRt7r58dmC+QJ77voefg77ykn6+cgqDvpBxRL78c4q+ZlnvvnQylb4EXoO+fxBgvC9IyL5jfCC/Q7yqvhQlmL7PEmG+2ItcvpxxXr5Zde++0/x9vv4nWr5j6EG+BY57vdPaWL7jCIa+LFG3PEtKgr7eD/i++sJkvrpIq77AE8S+wEqVvjWS9r7d0o4/6FRqvqzVMr5Pu5U9QCZ1vupbir7Xwiq+","oG69PLIx1ry9S4w8bHyyvDj0OMDKmQ69nk4NPo12gL9cO4w6mFOMOlbslby972c8oIdyPJPVDb+grAs7AZP1O9LrjbzimuS8GEVVwEDyhLuT/0c7VsDPPKHTMcAoJWC/87eYu4hFQr76fz08oG4vuzgpRrrTHJ47OUfwvTSc2bsIfzK8+u2BvIe3oz3qIgm/hykyPeqabbtyboq6aiY0uniKuLqVFzW8u5JmPjzB1rtoHgG7d6MGPBg9hD5vR6U7zdixu3k4cr367wM87WdAPrnVCrwxbrC8VSiKv4MzCT3/C0w+8J5AvziAqTsbUAa96tIav7/9ojxksCo8MULZPEQiAL8WH4y+tgK+vjEUk75XHTU+N52VPRqtQr9W4Z88PPG0vkNg077T/7a+W4bmvu+D6r6jVh8+8M7Nvm92rr4K1cW+s0UkvmyKnD758dC+xqy+vkXO0r790Jc9eTcdP8QkvL59X0Q/r6LOvvRf1b5YkQm/vXXRvrUiAL4QLRq/8pLFvm5pwr5n6ao+5vzLO39sWr8/iqC+pg0Gv75o2L7HEsK+V+2uvnd3d79mZMa+4zCwvjie0L7WMWq/QoKjvsdS2L6UDog8JqPYvkADUb8tdem+/EKhvhkDfz2aL9G+9y5av0vRlT5gYsa+vDKkvtuDCz6P3M2+1yXxvjDXvL7O5zA9r2BIvR80MDx4Yaa9rFezPi3Cir3yS0g+fNOuvh7KoDspUwi8D/HPvFKzxbvVXxk9XzTnvwcEmzz6RKY8jlWIPANIVb5a7em+xLcSPIiWtjsXi888GmjuPN6Wh78mA6y86MI4vyYNEry2uZw8QHDrPO7+GD2dVD2+Ruizu3a5zbyBMxo8mmQYPl/qB8C9KWs90g5aO0jfELwHaH87svGQPGhxczyjtqY+ydyYPJxXvLuFio06cEu1Ph/yHDzprqQ88DMEPosigzy872s+3odAvDRQpL3sw1I9BBrNPHBMhD6mJkc8bV/qO++AsDwTsKq/SJ8IPYlDgrv0jJ+9","LjZhPQNfdTvtYTY90y9JvMy4VT6Lupu+HXWWPkWvi712Bb88gtvdPHP1ejuIlhg8DXT/PG5SOzyejso8iLliPf4fFT2KZpM9OGKZPSkOZD1K81s9vZc4PbDV3z3SSK2+0Ha3PI7moz07drU8qVZSPU8csD0Sk5A73QZJv9Qglb3KyhE9mVJBPLp80z6bug6+Bv2SPXwYLr0mnEY9qR5pPbylhzwWPm077mxRPkNV3jyAFik9Jk7GvAwofT6UDRg8sPIuvD4Air6HCAw9oV+QPtEYkbyramO9ebNWvwDtyTyZb1I+ikeXPjvIrzyBV8M9B9Y7PMfOLT39gpQ72hDOvawZ5r4Jrzi+XX8evh3iR77uGAa95D27vgcwr74tj2W9fhYxvvpeR7566Ru+r+JIvvNKUr71BdK9HIA9vgn4Gb7TqSq+hH54O4NWfD5eZ22+tw8yvspZNr4VrdA9mRxFvfKyX76bTJy+kpA4vo+tQ756cD6+N1ZfvhJtRL5c3LS+Zk9ivq9MML6q+DK8pl2OvQdKDb+Rrwi+3BVMvljSTb5v7yy+/xIyvnD5lr43+kK+NDA8vlheTr4lWQe+m78gvhj7Qb4MvVG+kT4jvnVMfr4fZWC+sl1svhXSUL3V3EG+unChviYYVr7KWji+95QVvhPpDr782DK+VTJZvqHWAb46Wuy7jVIrvgbqLb1j9Fu++II/PmBvC76H3o0+pLamvZokpb3ZWse9C6/DvQ4OCb1jxwW9QVO4vSVBwrwNJz29jFsBvS1dJL6PCyi+eeGNvTxIh71w8v68xAYJvb8wej9QEIC9qExjvuasWL30Cx+9IcXnvBiKDL2zHuW9q41kvY1Ax71JzZW9+F+1PsJ17r3rQ8K9ADoEvWV6CLw7LU69Hr1dvXH7gr3oVBA/h4NJvfIKgr3ZA2i8T7sOP4gwL71xmbS9RlB6vsh8OL2i5PA+WDTWvCV8e74NEjPAeCQcvUchCj+gC46/FH99vcApyrzJFIS9pWUOvQQ0q71OsLq8","Oh0bPcodGL0UeO880VDxvEiVy79QbBG9hdNCPjyznr+1lXS7sJiXPMQkY7h/T6s8ciLDPM7TPr/QU2q8Qb1xuwzQEj1wqDI9jBEYwIRSATwSiFg7aRoGPHVTEsAl11y/O6OxPDOcpr50QS479c8uvBULTzxUmTQ8pFAHvp+2xbtYyny5TqqsOqlz3j3xYQ+/XjH6PJoVSLxzJno7jj1KPBoIZTvbt5M8JrpoPgyNozzaEpE8EGOPvFdEqD6xbx4807qBPDceaL6liA65F/ZKPuIyXLxD2De9vBhuv7LndThDW5E+Ovdqv0Hn1TtR4Lq8YDdMv7kWVDwcpHc77iqHO5TplD42HLO+b/mdvopSt75Vvua/70pbPgLBHD+c2L+/qfGwvtnvyb7M1by+GUG9vpeRxL5s7ITApvfEvvoRn76MHK6+IDZPvllvqL8zdsa+uLWlvrJSsr4mo8a/GxAmvzS6s7621ow/W6S0vp6srr6kpSQ+XTixvvSRsb3wRk49d+zIvnRXrb766To+2g9QwMjv1r9FJJe9pJSCPXcjr77NYqm+32iavnxQDb9/7K6+dVq3vkkS0L04VoQ/AP6qvoWq074t29a7aPO6vkeBH7+YQKS9ofTfvq/fLr5dQ7m+n6Ymvx9tKL9elbC+k0Yhva1ydMAXGLO+SLnBvr/FVj1swnG+2TA3vtMrzL2j7FO+R5oGP+7Bi75q136+o0XjPRbdD74kLEK+GWUOvnDpBL7GPRa+PVBcuahA6L1QZQS+cV+yvfy2vj1Z8688ryQevokXA76iQwO+CmWkPSA7Yr7Ttii+F1c7P17bC74p48K9VvYCvgFa172v15W+le0tvne5P75W1va9FB0QPi9lQL64A7K+kVZsvX5JyL2Vhtm9S6bkvWj3vb2tSAM+pyD/vSlnBb4ctgW+ep6pvdwfAb496cS9jH/SvSln271hiEA9xJktvut7gb5tFxs/we7VvUhCNjumMye9jBnOvflw573/P728r/nIvYKxIL6Rb9G9","htoWPW1qMT2/5vU8hJwtPdLvgz78eV6+OgPGPsITPL9deUA9ZY62POpTmTwo4EU77wn3PLiZ5b1MYVw9f5QBPaOV3zyvvFS8Q54+vmL5Wz1ljHQ9qmEJPfgdPb769Yw+ziPzPBMMAj30It08HAe0PJMxlL9mMoU8OeEovhJ+iz3X8808KYQWPQ+SqT5kMgM+OctoPdbMdD0BOjG/FCrRPKp5LD3IJx090qzNPbiS5jz8jkw8YX+KPQaJEb4CCJw9aNnGPNQl9rwDuUM9ynAcu3Y07b65cKU9ORtTv/oNMzwe9/4826gyv3l+gjuFSye/TyAVvsqEPDwyvoU9nyg5v7wpM73q1aQ7QogHvheLybxexrw+0+TZviyCXD6gn0G9D3fRvQPkCr4WsLC9ozHpvdOcI76UZYG+Ac4gvuqKyb3mavK97lQ7vpLJ1bzKBwC+1wACvv9y6725Ms4+NUcKvx22D75waiO+nyjXvUF79r0uMFq96qIFvu57pb5ED0a+r8MDvips8b1PtEM+3+SNvsYePr7AP7m9Kwmtvf1r0b1LjiS+3sCyvUjnob45nRS+9XTJvWSxxL1RrN09I9z6varOCL5eVT2+p7j5veegmb7w2Km9g+FrvVy6yT5Ocg6+v4pZvquDMb3opPe90zitvf8mIL4guR++fCMIvh1cpb0X/li+YF8wvXIOS7tK5SW9SEuUPV9E273Cymg9Ktc9vDy4z7om4jS8UNIEvKjfRrsI5n47LMI/vXLa+7v+QQA81F+qO3BhPr7A5n48f3/su7+JXrzhhNk8k5wcPSp4lTst7GO8CRPwPJxtXTvcqxA7z4YbwJYqRDwI+Wu8cNHYvuHp3Lzppte7F0WbPdTdwLySGuq984X2vs0c1L+5W8W7vwofPIq1XbwXjXE+IscZusNEK7z3J5K/+6zwvSRPobsu2Ai7rMoDvPUpa7w7wjI+H0XivyavF71RZ4g9lTkjPF9LbD64xxc9zESnu+Y9WMCMYrS8GzaaPHVt/Tqdvo7A","euDDvcKsWj1r3OM8Dh3jPJ8IJT5+fHS/bWobPpm2ir2VO6c8Jh3IPPV9KTyq+SI8+D8FPILYDT51Yus8rc1NPd6bf7uWTcK9BDZgvSWP4zwIBYA80UgfPBhtjr1GW0S9qKQAPG1DmD7OJAI9+4rhPGFKBr/VOuU8TZgivyC1LzyeA788MMIAPfs/YT7+QSk+8vZZvhrtOj1hmSW+kaDBPNVtBz24mZ087S5HPUsoGj2wPTY9so3Wuivi1T0ZVLg8Q4i+PEsKSb0NhLM8tlCMPMc4Ar82Fn494QmFvHfTczx26zG7EGi3PlAHxjydq8a/SWuGPTSbvzzHaWE8tT4OwFgr3r7DmY+89BQ7Ox6LY7vaPS098gVXvqDR6rvqm+o6ZqKbO+RdBjqNn0K83OMau2hoG7dggrW8cxNrPL+t4jtOKqm7ohpDvniqebupSps7TntWO2GhnjtZ2F09cUi+OmtTBryPbsy8RJzWOzQHBjzCDgrAPif9u9fXhb1ESKy/IUKBvLIaw7smeig9cCelvR/rNr9U1b+/1LPxv27upjslAMS7pgeIul76Fz6OxwG8se3ZO8JGLcB8JFK9A7D5OeJW4DuAerW87wSSO4glmz39b1LA+p2QvD2Y+DxB2nK7gQ3HPShIPD0/7Wi7X2tmwOP5KLy2DLu5AVuqO9TZisAB0Mi+WhY8O9c5JLy0HDq81sIDPblOMr6V38i82G9avICdeLsRpas6xxwgvJ5huzs7drY7+FNXve3CHTzqFQY5smcyOqNSJz1KRme8oapAvOow9Tpk9yA85ZYaPMDSn7xudFi6gKMuvTRhLrw4Rvy6F/Wkv2HswLpqaH+9jO+Jv9GFXLwju8o7dLLZPGMGm71sNDO/yTi0v2vksr8JCOm7aKq4O7ieIbt9aXg98ZWcOzyuKzwpZRrAgahYvbGlXjwZfV+7WBXhuy9r+7oXaI49q1Q/wDJ+KrynqsY7kTnnu6vpvD3Dgk89IMsgu62Fc8A7h+G8wIYmtt9LGrxnHJXA","POxLvz1bgzuQwis8SqmJPM2k4DzAip6/W2covlUKm7rpMJ877fuZu5o7AjwG3mI80t8ZPHnIDr5EUFa6CF3yO4xF9TsI8bO939KcPLoVC7z9+727pYphPIspjLrz7Q48QGVxPAYNKr5U7Ze7EnphuhiPP8DTo1g6ibcav7zy8789tTa7p9G6Ok08rDwu3Y6+LSXvv4Vt7L/uMyjAGERhu5n+Gjxxm8i5muUiPMNtKTs3YOs5ErkNwCUcHTvOSnM7SkaBPBb1g73yFdQ7XlbTPAV7NsBLe5I8UPEwPbZsiLtqMqC80O4vPUc6WDmS2DzAH+WtvQVUCDw0zJk60Mo9wGqzLr/iFog8VjgjPPTlCbsm05Y8RoZ5v1aZJ76UaI+7mFYQPBxm/LpguQa8amDJO0rMAzzkuxm+5ZfNO2czZrwNm6+71F+ivVXSNDwkvNQ76vkauwfhiTsH5HA8GW0qPYRmiToIthO+vRbPO0p7kjyihQ/ADI1ivGZa+b5tFRfAVnESOsnOxztgQVM9cVZ0voWk5L+xSRfA+bTsv3LfVjthGZs7yG8SOkD9OT35SSU726bEunTLFcA5q8u8UogXPCIByrrMJNW9WB7iOyrX/Lq5mybAy8wuu1VbIz20zOq7/EcaPfv3Vjz9qGc7528vwDbCub33Ph+89yxCO0ioNcA/nP++JD1IO8hAgTsinve7pdWHPOym1r5H73G9Y4KTOwtAATyEQvG4cSfHu3aynDyMusW6e1CyvewzBTx8F+W67pZLOtVxaL7FJMY71ghOu2e557uTE/k7oJG0PMLrjTy7aq87ZYCwvauItLv/i5e6H2oJwOoMCTzTI1C+RiTwv1ijHzuj2BC6fDAAPRtwKb4+MpK/IAYGwHJfvL9Sr1A622ymOadMM7xTyBe8xG7DN215kTxEBSHAJi27u1rLw7vFMLS6j26pvSM+DTwd+B489i48wHsO5bvu5ac8N8YGPNvI4DvxUXI7DGCLOSP4VcAwqii92qNwO6dwFzvWMnjA","GGjXvlcuGrw0cRI8ZYbpOw+R4jysYLS9nsu0vP3UqroZB+E7fdCfvNaahTrmUgc6a/J4u54UQ72nfdw7SmIqO5XPejvIqd29uKc2vAYE7rvyCrK6gtvqu85l7DvBdNC8+crkO8rZDr24xWK8n+3TuqK3/7/gxMq79S4fvdM9nL9LHeW61HoZum/jszubvoe9m0h9vyDxx79regnABrsKO44Vgbp+ovm7Ym9CPdvcWrv0vbO5hRs6wJmpiL37Hww7WlNlOdYDk73GYm28TdHEPGyeecDSYn+8uZg6PKhCELrJAxo9OhraPABel7odl5rAV8U9vQEqlTuEjl67D66swG1SmjwQ/7g7wChXO9V5izxBvCfA7dhcvQ7bBj5fKGjA4dZhPOS5uDwOkSg7EnFjPFj2tzw37fS/n2obPE6k0DsxHbI8BkoGPsMHS8B/TX08DjmAOgJ3NTzcli3AA3Sfvxuao7uut7a+tc10PJbdrTv9tnY7c+XOO1SVjL18gsm8EaUdvPwLdTtiBo4948PPvw00OT1Ndlu8eGU4vKysh7vD5yE8ks9GPILAhT3aphI8qWCPPCWKhbxSbng+8tdSOwOdHDxJUYi91h9bPD1Llz2AFK28XgiRPDPYpr/h0AS8oVa2PdDdHr9Ud8w8pqpBvO7oB8CghZU8BC+xPERSFTxIX725Sux7PXvsCj3YFtY8Fu2kPt8HO7+fs8w+IOD9vtzkOD0XLLs9M+OFPde8njw0tDE9V0ggP/x4uT21syk9wTn/PKuN7r1aLZe9Y64zPa67NTwI8T09HLeEvm5y6r4GFvQ8GYsUP/YM0DsQJbk9GuO1vSRldz0XQUy/6GtaPYp0bz0D3249iXK7Pmv7qz7U0R49GvYPPj/Lgz0evEA9CP8kPad8AT0P0FE7AbeWu0gKIT2VeZw9xQNEPsYbAj2J+TA9XEnrPbBFDj2V2Lo8GwoQvJclvzu3TrO/wpPvPJG8O7z4gQk/XJhPPRhOGb5Modg+6/Q2PHOUCz0zbCy/","lui/vtBWaDtKeKq7vbqBvLvnVrvs0UK+r6xnvS5Xubym+Gu7v4drO/0M7burlAO7Bn3POzNPfL1a6Gg8lqxluj2nezpw5A2+LyAIvHmFHjukW9w7mX3nO1OYozys2um7ibP3O5cxib1Wuje7yo2tu8yBn78oWmg8CmPovYNGhL/QG+E7eBv3us/v0bvpxdC9mjJMv3X9rL8GtpC/4jvQumKfuDvC5oS7G9cHPJb0zDvz4527RNwMwGRIRLxVQwa8qLHbO3arc745l127imkbPemQNMD/SFu7jgtjPNkE9DpPSAA9vLEUPcJwiLu2l4/ARTD+vLrE0jsEuVA8KUamwDNZ6b2SZHu9desrPDkxwL3FnA0+RbXivQeg/z2GY0C8DaSUvPLO5bwmtwe9+EIxPEmtBD02o5m5yclGPBjzXjzZZf870HYOvkg4B71+N6e8VE2tvEWhfDyGEww6CxklO5ITtrz1FrY9h3j2u7G4PzzzMn7AeIpAPH5aPbwh0+29NlPrvA2vsLv2mpE9XCyvvQwY5Lyxwy2+5zsUwJl87Lz57ZQ87DwOvCm3nD7WBKy7bItBO2oQsL6imaO+Qcc9vCUr7bsDNpu+WwYWvNXqnz7RaZu/ete+vfagzDsroxS6NWmfPl+bxz0wOlG8F1M/wA40wzz07OU8ZH6svJ5vlMA9hyi+DHXoO/qQYDwQiTW8slnMPVBchL82WVA9V5FZPVbeCzxXPt0852tIvEJXETv0yGY9LhqGPQv5Cz1b3QQ9vlNGPOKQwz2oIVK9ci6IPcOY4jwf1gO7TCNqPYSGkj7QjaC74wYCP0mDJbp3a4K8RLcuv5tPsTwXUoq/dqPCPdl5pzwpXoi7v69YPh3eb70dPcm+7DYTvdtS675Jmz886n4SPetCpDxxu1A+BfxaPUl5eTypOIu97SZKPiNNGbyyNWM80uKtPX/WIz3emHo+/IbLvawOTrtFHQc/FPJHOeVRmD5PgfI+v26cPIv0vb+MCwc+pCcOPX1uwrwetSDA","Ub3Vvf/jUb1ech062h2RvTszuj1IXbO9PhDLPX0GJDubsIO8/sWkvIdZt7wIYQ68KCbVOo31UrzdShk7YnOJu79OrTs2ot69j8kKvMoA5LxPg1u8+bTiPF1VmjxZZAQ98KJavPy00j2a9W68qUGMO6opWsCYfnc8NM04vMgU6r1Xaqm8gtdnvKnuqz3ixKG9qQDKvGJoDL54yvq/wqP5u0tqibzxEWK8uIydPntZoTrzCoy80E+HvtuQm77vdoG89XHGuzu1hb1Uiia7b9GRPkpmhr+nXdC9tWJpPYaStboRO6c+hGHzPSk0KrxNYyrAZfQbu9DNRzw4BX+8GIGHwNqtG7yYy16+PhqdvT3Jgb5FjMA+qMJIviwsjj5mdYE8m3/qvW5rzL3YPA6+f95VvaCpXL2f9hq+AuKLvQmGg73DvYm9ASCFvRz8C73RYMe9OPCfva3MSL14cE49b2CEvsyq2b3u57q+0UbYvTKPaL31FTi9x/oNvSSTJ74rqpu9WHECvnSGpb2p7vO8BPMUvmYrub2XW5G9X+TRvMJ9ur19g4O9T+W6vU68Ez/HNZ29UZS3vbBeJr1kle4+G/7MvSOy770ZcvG81ApDvWrjFD/b4yy9y3Sivgp5Cj2FDme9hh0SP9nrI7w1FbK9kP9DvT3k3r3jpd+8OxfpvWltIr03a8i+i49dvMpOnrpOW0G87EsXPYWGqL5iYMW8kbHePKLbcLxsAS28HSHbO091pTzHIE0809VMvT5nVzutgSU8SKw4OxDEwL2ZP688AmzEupREvLvZ9MU7+dBUPZQBfj0BgtI6lcSAvL0hkrrbH488ZChpv13QhDwmosS99IHQv7TkkLxyHYY7ZikcPukj3b1zdES/z3flv8oJXr922XE79zaFO6DYjrqdkis+cDKnumN2fLtusRvABFyRvZ2KYjzB1bO71s8dvnKes7rtXyo+EaULwHy8r7xp0vU9mHo4PAQdUj5+FGU9N/kkvGqPC8DW4vu8oBTIPAzqrrv2QD7A","0s0dPXYf3rxHJp08pPMsvX6wOr+t2fu8wjUePlrdxL+Jb9C6Xm2+OkrKDLs9YR089NWPPP/kxr8ybwU8IDQuO1PiNLunDli+ym3GvyhSojyUIk47FhpQvJykgr8mQ4y/Qi8KPC4str4dP7g7DXTHPNvKgzzhRkw8HgfovWF6ODt/TyG8O1Oou/Tlnj20z7O/3MZHPZmPlbwV4yg8mjYxvNmqYLt3D0M7kuZdPmplo7olWJ48/9smvGFXij5cNws8DPMRvIrFJ75d/LI84vJpPjJwgjvwjWa8iQHGvvOjLLvEyF8+J7YWv02RHTywQ9a8LIG/vxEnUjxZmeK7FKpYvIm6yr1vIPI+icMwPxp2Dz9eZoBA/HqqvtqDM0D4O8E/JhIhPxjdSz91txY/AtBOP1T1Yj8vKkM/Gl8TP5cHND/ZBSY/P/Mvvp/Ipj/dLFY/9O9CP+EZRz9pkpBAooqAv3skMD/keKtAnbQ9PyjLKj+fRvs+0a4xP0lWJL82d3U/7MdcP7lRLT8K7UBApenDvtU9AT/TdYw+XWWkPx+vBT/90x0/BMwSP0odhD8IJTg/lmc7P1xWYT910Ko/JH8bPxNZaT+0nnS+CaQrP54dqD8wfps/5zJ4PsgHhz8eQi0/kxmlP8DAMkCPIx8/ByUVv6ymnT9tZwM/gcRZP4z7z7+4yX29vDVPvnWiOL29ply+nxvSPS18D75kfAG9h84qvjIH4b3htfu9cNkDvkhnEb1LPcm8srLNvSTCL7196kW9cMQFvaram77qJO29FFiWvXE9Yr1z2Ri9oodkvWb7Jb5Gv6O9X9D3vnsZpL0oryK9zlCgvMS8Bb2Yfd+9r7GMvf+b6r0G1nG920YpPwgh7jxDsj4/UWR+vbJqKT3ES6G9yPAjvZ5cv71xyh8/inKDvVJbhr3cYhY61VVSPlHgjL3jXa69+CUcvud6Dr0zavg+ChcSPQE7n76JvIy+Db//vCmCDD/+4SC/J407vaF/Ijz/Ara9qoYjvO5DoL3kL369","q5PZv3DbXb+p3ZO/lrdhv8DoCr+jHAHAnsxQv0wI8z1PeYq/nUeZv4G7jb+zAZK/aLOgv8neST6zVJ2/s3eIv9SXlr8Qi9m91kW7PvXUl78gEY6/hNGPv5QwrT3q67M+dXCQv6wkg70DhJC/GcOavzXadr8WPZ2/fZ2oPyPi0b/Q96C/OJiXv3CnmL5pmSE+9imwvzWlLcAUdp6/BzSOv8/ylr/7qoa/0zAIwD2elr+JG5G/1/7fvz/McL+DKo6/fDCXvzVLDL68G5a/o6MOwFWZs79xGG+/mtZUPbe9ob+LlAnAFGF7vrvFlb8dpXS/M5MEPrWknL+oY5+/EGF8vzqDKr4MEJG9A0QZPM67er0BQqY9Xrs5vhWCjDx0cgo9hLjZvGFkH7zWeIK8SLtqPGRdorsnt4S9NPmYPNVqZLxsK886qfDXur72NDw/vlG8qB+gOqWs7DtSUCs9TxGHPVR9c7wiYus8cKilvMJSAjwkO/y/eYgGPNDHob3yCde+gGhTvFnKAb2l0QA+9eXGveWO+73MzQG/WFS3v+4CCrwT8jI8t02AvPT4wT4418s6uxAEvNJShL9j9P698D9uO+wZALzMEiu+VkOlOyDdrD5ap7W/Up27vQoCWT4xb2q7+VLHPhe3cT1HT488VykuwEiFHL2ARFo8fo9rvHCsdsDb3Ue/Hq5MPMCZzToBLUM8hucGPK1onL+bkxq+b24gu0zXiDuwN7w6QgCEOYE59Ttz3Ag8j/oXvm2rYrvvHjM731z6O51zfb57qw88zL5BO8JsADvg+Am8nLafPGSUsTzoPgc8epkcvrub/TtUkNK77XcwwG4mZbuZhRG/SgMAwFZt6Ds4yFW50eOHPKkdlr7P5Om/Swjzv0OrHMCYPCw8iZDYOxb6i7vJqfa765wlO0C8+jZ2DRHA0pOIO5YPtzvW6I08tnRQvq24BTz3le070bwuwC+przwWASQ9CmZyOxyE1bvh0cw8JsgauiK1P8AAkMq9vDPoO9/++junzj/A","RKnevmu5kj0UGKE90EMrPYRzQT4Ekrq/gWMtPhFKBT3YwQ89qHwQPQVaxzyIZIY9x3bQOy4ErD4qvTU8pzxUPD+qkjxdpn89ufCPvdKdsDxxYCI92YRLPcziAj4BmxW+QUgMPZaTOj9kowk9r28EPewaXr+a0i095mjcv/wASb7rJp09Ups3PbvqjT46EQU+C09gv1xz6L6Gw4E7BAiiPC2KxDyx0Ak9jTd/O2XCID2Wrro8+gsWvEAnhj6ky7Q9GvjnPFtX8T3oBgs9+YMHvK3sHb+cmFM97nTaPvGMGj2qnIo8iq/4Pm3vLT2XKb+/wAKsPrQuLT3U06Y9b5IUwK+P6TwK6IA8It1aPbqf3DwNeW0+OLrJPZQ/qD5wdIW+lzt9PR66Pz1y8Aw9hfGxPEnrhj0bDkG+L1HjPD2zMz3O5J09uj8APpy5Jb0n0So9A/vYPDslVz3oeKe73IAkvwpymT0cml2+d0cEPQU3+zzoj3o+r70nPXTsKL9hQIS9dXByPcn297sUQRA/LoUEv29aij1k6si9BJlgPgYUWz2mxiI9JkKoPQ/bgT6xl/s8kcM6PacWvTwvmec+fzacPP/bKT1Ws+Q9LAahPaeChT4vDQ881lm9PI9kDcBCiDY9V9dyProVRT6hqDg9qn9mPnpq67y0qFY9oSIbPX7OeD17s4c9HcYBvc5kWzs9hSu7Upm1O5ITETxDGJY+lKySvn8ggDwqrfU8CnjKPKOtZz1a4H88fKYqv5CfeT2VW9g8RVQQPRR+lb3wvya+qyUDPao1DT3Qagk9VpRxvlrd4b5WMs485tI3v98kNj2FXg09v8PIPdt9gj0ntA6/h3LTvQwYJT1pN9E8qzTJPjD0iL81++49spqEvUeepj0Jumc8b2CZPFT+hbuvG4g+qJOWPNKGeTxx8WK9jPLVPgeyIj2EwII8FUyWPHUnGD2ICS8+rubmPK9gC7xQbsW/GwXXPHUuiz6aYkW8m6XmPNAhnj3GbK++0+CWPLxmGz1snFK9","pX/wPLaHF7tPi9+7zfI6vNawJ8AMEra8NAISPh8Omb9uUic828ulO6RKIbwH7lQ7GWKYOqxHIr/8VAm8D3ySPAHM8DzOs3e+nUtkwLUqJbwGGbg7wrvyPKYFJsBpTTa/sfIJO8JgVL4IHAW8R23zOYrfIDyh5FQ8DQKkvTSlAby8Jrw7S4W1OgD3mz2Xnw2/JqEhPdZi5LvTsJg6vTG/ukKvkjzn7KG7g0FTPrq1dTyoG4M8HuknPHKZgz7a3BM8y4TFO6BNYj3Wyhe7VEXfPZEnq7x6Tba8go97v/5BuTxnSTs+Xt4tvyuArTurH+q8RYgtv0/Rkjxg3QA8jUwQPMRuXr68HJO+Z9q4vTaImL44n5s9/22ZvqZ55z7MTsC8z0AbvpyYQb6I3DK+Sd+rvWM5sL1Y4/W9mQH2vUA5wb3L6dS9vnEovgaeBT3URBa+ep/uvVwosr1aSMs9XwidvjKJDL5qd6i+n/nzvVPd2L1gC7+9Hk3OvTECfb5VkCa+yhgqvlBfFr4TT70+/8hFvs7Dkr56JwS+Vui4vdEcD75lj/69rQPgvVZbij4Heti9OVzyvYAUz70I7Xg+laYBvrCkLL5xQ409Eg0Hvr/yjD6yf7C973vCvpG7wb5Oepe9sD2MPgZbkD6kGwa+qs+hvbu/Wr1qrMS9GTgxvuBNi72/kG7Am55tv+CkhL+xWly/HFeoPjOFIr+h9fG+99UuvhqOhL8M95i/VEKDv9tZmr8z+Z2/6ebEvlRVjr+OHX6/trOTv++INL4Lwjm+mOSWv4t5jr8CZo6/lGUzvZPTTb+DZ4q/NeeDPiiEiL/I9I+/mK7Iv30nmL/XJiFAqY4RvfOlkL+E9JO/9VMDv8h6A7+3DTW/lezrva+J0b8lG5e/gM+Vv91afr8EXNq/mouNv/5IjL96uaC/BbcXvxTldr/zv42/Hx4wvjRPib+kmPC/E+6bv3CeiL9WurE9M3qUv8AR7L9WaUU9MfOLvy5yjb/AO2a+9TSVvwMunr9tlWO/","ayTmPIugSL00RJq7V94BvXe7NMD/aiy9X537PQEmUr+uzoS89lnLu5b6s7szXZw8w3sCuVhz5L6UaLo8gpS3OzDLPbtRp5G9WQcZwFY897si7c+8QTT0O6VMLcAXCvi+ew7Yu1iHXr4N/eK7mbgSPMEVizv3dIk8ixnZvRpCiLwUmLc8fAH+uifpsj2x5hm+u65GPe4Dv7u3Qhc8dhY3OuCjFDsxFDy8Ez18PmatKLuCdCY8BOEBvBOApT7sQmS7NlUBOyFWwj3m4rY8sdM/Pu6ePbxcgje9+fKPvyw28jvlN0Q+Rzhlv7JlSLyx3G+899/TvuUFNTsAHZK6Kx5hOyTPrL6zJpK+jV0qvpJGnr7VueA+PNa+vjWuCj+q/4M8iwA3vmskXb6pPzO+X5ocvsyFCL77zfO9/1AivkDBAb60Shq+N+gLvcgrTbtTkUO+Pbz2vbFlAr4/ZhE+HG/fvjRmOL5tjuO+LQglvgptF77N8/+9Oij4vf1jjr6n2oG+gOhjvtxxKL4Lo9c+Brukvmf1tr4yby++blABvnS2OL5UCBO+XmskvlA3OD6kIhm+yPQYvqp0y73ZiM89/rgPvkbWNb6ho+a97WsXvtGDET7ERPK9aY2wviuwzr7N6Ay+s7w/PqbSwD6NKi6+urnWvZfWybtZYCC+/DQ/vrWuCr5kQWI9DRYYPs2Lgz039Cs+NmEgPwSD/b4dJeU+CPefvr5+oj1irac9vgqNPacHTj1SEDA9DtG1vid0vTzflBE9XCCwPZFgHr09reA+FCNUPWN1iD28yig90LqXPksh+716ho49B+JvPnPftz3MBUA99XRcv79XJz04bmO/5EhdPd22qz3xNGQ9qDPoPnyCAr8bIsc9lV56Pc/FGL+yApU9cL2APZxqCj0Sm06+tDOEPR2Rfz0jLrU9LOytu2shGT2FvK8842tLu4E8Tj3Sig++LceJvpPsHD5YqRq/LJsCPTR6ur2Gfwo/9nKOPay4wr7N3Nq+vC69PFsziD0M8qi+","RyhbPRGuuTs36f88BcSaPOyfO788Nyg9hWA9Pr31Er+dq8Y7GyLFPE2ogTvDb6Y88hRLPFJdn79L7DO7/fIuPeTjVDxCeHe+mCKKvuvAqTz0By48HK3bPOKHeb8/tsS+RpHUu0eYyb/jpwQ9xM74PGS2VT3MEjc8hGdavnC0+7yrKgA8B4EoPQs1Zj4jyd6/o7S4PaGLJb1uImY92jbfPHoEwLqz3lc8mn0vPtP6iDzbMPQ8wi4KvVAsxj7gsEo82gZoPCb5tzyifeU6P3ZTPgxG0rzgR0Q9oYu8vxE3FTwfXD4+ZEc3v5niED2qDsO8H8BuvyqYZTyy0eY8vGC1PQ=="],"bias":["VAd7Pzdtg0AkMjRAR4CQQJ+eRr+cS8Y/4ZtfwKAwhD/ShEpAzF5sQDh7YUD4yD1A8HNAQPIJsD9fVz1A7fozQAEJOUCzDcy9h8BgPy5wU0DV7j9Afts1QM9Wxj7Mz90+zilRQK8R+r5Cx0JAZ4Q4QPf7qD/7CTpAKSScP055vj9xeHBAVC9KQGhnj8CB3cQ/89iQP/MzmD8Ym6Y/6g9JQOrOOEBzizVAh4QAQDvXQ0C3YURAPDawP7sfkcC9HDNAoedcQJaFib1TzjxAkVcSQMYmvT8B8bFAOppBPsqUQEBRVQxAsnYyv2VDP0DkSas/buKVP5A2OECfBGJAxYChPw=="]},"dense_2":{"weights":["9OOOwPo+yb2o1YU/3FKZPvq+qD98/M09HFNxP4K0jz4LuQbAe6eTvgiUicCkg4G+acQlwNiEk77d0BTAxA+BPZSGnD8eKWO+kgiHP/rNnL2Mc5E/wCCPO/gGnj8Qz7C8h8WZP34DED5HVyvAwD+Ovr5xnj/Mvbo9ZeWoP0B0Dj7rdaI/mnwtPq+j372Gtlq+Y1ZEwMDDw702YZM/O6GTvkJIoj8ejPS9W9eiP1D48rzdS/W/NAXHPQc4O8BgFAW9xwaYP3hgTD4axsq/gq6WPpP+oD/Y73c9122jPyD/+bxLFZ3AyreKPg44nz88E6A98VCbwOwlaL0kWozAfPIwPq58hD+YOWM9k0ybP8rVor0T4+a/gtBFPjyWU8C6g2++u1VuwHoIjb7MNpnAlCqCPeSji8AlnZm+GuicP36PHb7c36M/ZmfIvem+rj+AvW68sPAzP7pogD6NHps/OL0JPY4cnj8Ys2M+dYyKwBC6vj1YHVjAOtWBvkxbrT/eukG+BxWOP/QjYj7uDeS8JVg6vq6Rnj9UiFY+sos4PxhsTj05TZDAgXcxvkejRD/V9Ti+uCO1vxq+iz5xc5o/2FRXPjA8MT/AoU+9NKaRv/4BPb5QNqE/QDaXvgyTrsCI/nQ+pBAiwH+pCr5zmp4/Pge3vQ+Rij+oI7A9yxatwH1Fc74="],"bias":["GHeyQQAAAAA="]}},"hash":"146fb8a39dcc6632205a52778ab7dd1301a0ce223b8db7677e6be9b0f7ff3e46"})";